00000101
11111010
00001110
11111100
00000011
00000101
00001111
11111001
11111001
11110010
00001011
11110100
00001011
11111011
11110000
11111000
00000011
00001001
00000101
00000110
11111001
00000101
00000111
00001110
00000000
11110101
11111010
11111101
00001011
11111000
00001010
11110100
00000001
00001110
11111010
00000011
00000011
11110110
00000100
11110111
11111101
11111000
00000010
00000100
00010011
00000001
11111000
00001011
